#ifndef AUSTRALIAN_CREDIT_MODEL_ESP32_H
#define AUSTRALIAN_CREDIT_MODEL_ESP32_H

/*
 Auto-generated model data.
 Generated on: Sun Nov 10 08:50:54 2024
*/

const unsigned int australian_credit_model_esp32_len = 3636;
alignas(8) const unsigned char australian_credit_model_esp32[] = {
0x1c,0x00,0x00,0x00,0x54,0x46,0x4c,0x33,0x14,0x00,0x20,0x00,
0x1c,0x00,0x18,0x00,0x14,0x00,0x10,0x00,0x0c,0x00,0x00,0x00,
0x08,0x00,0x04,0x00,0x14,0x00,0x00,0x00,0x1c,0x00,0x00,0x00,
0x8c,0x00,0x00,0x00,0xe4,0x00,0x00,0x00,0x3c,0x08,0x00,0x00,
0x4c,0x08,0x00,0x00,0xd0,0x0d,0x00,0x00,0x03,0x00,0x00,0x00,
0x01,0x00,0x00,0x00,0x04,0x00,0x00,0x00,0x76,0xf7,0xff,0xff,
0x0c,0x00,0x00,0x00,0x1c,0x00,0x00,0x00,0x3c,0x00,0x00,0x00,
0x0f,0x00,0x00,0x00,0x73,0x65,0x72,0x76,0x69,0x6e,0x67,0x5f,
0x64,0x65,0x66,0x61,0x75,0x6c,0x74,0x00,0x01,0x00,0x00,0x00,
0x04,0x00,0x00,0x00,0x90,0xff,0xff,0xff,0x0a,0x00,0x00,0x00,
0x04,0x00,0x00,0x00,0x08,0x00,0x00,0x00,0x6f,0x75,0x74,0x70,
0x75,0x74,0x5f,0x30,0x00,0x00,0x00,0x00,0x01,0x00,0x00,0x00,
0x04,0x00,0x00,0x00,0x6e,0xf8,0xff,0xff,0x04,0x00,0x00,0x00,
0x0c,0x00,0x00,0x00,0x6b,0x65,0x72,0x61,0x73,0x5f,0x74,0x65,
0x6e,0x73,0x6f,0x72,0x00,0x00,0x00,0x00,0x02,0x00,0x00,0x00,
0x34,0x00,0x00,0x00,0x04,0x00,0x00,0x00,0xdc,0xff,0xff,0xff,
0x0d,0x00,0x00,0x00,0x04,0x00,0x00,0x00,0x13,0x00,0x00,0x00,
0x43,0x4f,0x4e,0x56,0x45,0x52,0x53,0x49,0x4f,0x4e,0x5f,0x4d,
0x45,0x54,0x41,0x44,0x41,0x54,0x41,0x00,0x08,0x00,0x0c,0x00,
0x08,0x00,0x04,0x00,0x08,0x00,0x00,0x00,0x0c,0x00,0x00,0x00,
0x04,0x00,0x00,0x00,0x13,0x00,0x00,0x00,0x6d,0x69,0x6e,0x5f,
0x72,0x75,0x6e,0x74,0x69,0x6d,0x65,0x5f,0x76,0x65,0x72,0x73,
0x69,0x6f,0x6e,0x00,0x0e,0x00,0x00,0x00,0x54,0x07,0x00,0x00,
0x4c,0x07,0x00,0x00,0x14,0x07,0x00,0x00,0xa4,0x04,0x00,0x00,
0x90,0x04,0x00,0x00,0x58,0x04,0x00,0x00,0x0c,0x04,0x00,0x00,
0xb4,0x00,0x00,0x00,0xac,0x00,0x00,0x00,0xa4,0x00,0x00,0x00,
0x9c,0x00,0x00,0x00,0x94,0x00,0x00,0x00,0x74,0x00,0x00,0x00,
0x04,0x00,0x00,0x00,0x22,0xf9,0xff,0xff,0x04,0x00,0x00,0x00,
0x60,0x00,0x00,0x00,0x10,0x00,0x00,0x00,0x00,0x00,0x00,0x00,
0x08,0x00,0x0e,0x00,0x08,0x00,0x04,0x00,0x08,0x00,0x00,0x00,
0x10,0x00,0x00,0x00,0x24,0x00,0x00,0x00,0x00,0x00,0x06,0x00,
0x08,0x00,0x04,0x00,0x06,0x00,0x00,0x00,0x04,0x00,0x00,0x00,
0x00,0x00,0x00,0x00,0x0c,0x00,0x18,0x00,0x14,0x00,0x10,0x00,
0x0c,0x00,0x04,0x00,0x0c,0x00,0x00,0x00,0x81,0x03,0x33,0x39,
0x2b,0xed,0xdd,0x48,0x02,0x00,0x00,0x00,0x02,0x00,0x00,0x00,
0x04,0x00,0x00,0x00,0x06,0x00,0x00,0x00,0x32,0x2e,0x31,0x37,
0x2e,0x30,0x00,0x00,0x8e,0xf9,0xff,0xff,0x04,0x00,0x00,0x00,
0x10,0x00,0x00,0x00,0x31,0x2e,0x31,0x34,0x2e,0x30,0x00,0x00,
0x00,0x00,0x00,0x00,0x00,0x00,0x00,0x00,0x04,0xf4,0xff,0xff,
0x08,0xf4,0xff,0xff,0x0c,0xf4,0xff,0xff,0x10,0xf4,0xff,0xff,
0xba,0xf9,0xff,0xff,0x04,0x00,0x00,0x00,0x48,0x03,0x00,0x00,
0xa6,0x62,0x71,0xbe,0xf2,0x9e,0xe8,0x3d,0xb2,0x9b,0x70,0x3e,
0x0c,0x0a,0x77,0x3e,0xe6,0x17,0x83,0xbd,0x06,0x44,0x23,0x3f,
0x8a,0x73,0xa3,0xbc,0xdc,0x8a,0x0c,0x3f,0x37,0xbf,0xed,0x3e,
0x6f,0x85,0x9c,0x3e,0xa2,0x24,0xe9,0xba,0xea,0x93,0xdf,0x3e,
0xf9,0xe6,0xe9,0xbe,0xdb,0x32,0x8f,0x3f,0xd5,0xa1,0xbe,0xbc,
0x9b,0x6d,0x39,0xbe,0x7c,0x3c,0xcc,0xbe,0xb8,0xab,0x83,0x3e,
0x71,0xac,0x37,0x3e,0x13,0x87,0x9a,0x3d,0x13,0x12,0xf1,0xbd,
0x22,0x21,0xfd,0xbe,0xa2,0x9b,0xac,0x3e,0x83,0xb0,0x91,0xbe,
0xb4,0xee,0x62,0x3e,0x17,0xd3,0x91,0xbd,0xd6,0x28,0xc9,0xbe,
0xc2,0x55,0xd6,0xbe,0x13,0x68,0xa7,0x3e,0x21,0xbf,0x94,0x3e,
0xb9,0x06,0x65,0xbd,0x9d,0x33,0xfe,0x3e,0x56,0x07,0xad,0xbc,
0xe2,0x2f,0x92,0xbe,0x1f,0x16,0x6a,0xbe,0x84,0x02,0x70,0x3e,
0x30,0x01,0x2f,0x3e,0x84,0x2f,0x32,0x3f,0x55,0xb4,0x2d,0x3e,
0x22,0x3a,0x9a,0xbc,0x18,0x8f,0x08,0xbe,0xc6,0xbe,0x79,0x3f,
0x8e,0x05,0x3f,0x3e,0xf2,0xbc,0x9a,0x3e,0x57,0xae,0x8c,0x3e,
0x1a,0x66,0xa6,0x3e,0x54,0x2a,0x2a,0xbe,0xb9,0xa6,0x0d,0x3d,
0xd6,0x5c,0x29,0x3e,0x8f,0x71,0x12,0xbf,0x5a,0xa8,0x24,0xbe,
0x6d,0x08,0xd4,0xbe,0x36,0x88,0x88,0x3c,0x93,0x72,0xb4,0x3e,
0xd0,0x67,0x9b,0x3e,0x09,0xef,0xc5,0xbf,0x89,0x85,0x30,0xbe,
0x97,0x01,0xac,0x3e,0xa9,0xf8,0xd9,0xbe,0xe3,0xd0,0xd6,0x3d,
0x2a,0x85,0x36,0x3f,0x9c,0x98,0x98,0xbe,0x63,0xe0,0x0d,0xbe,
0xf8,0x9d,0x0c,0xbe,0x53,0x08,0x08,0xbf,0xb4,0x7d,0x5f,0xbe,
0xa1,0x33,0xd9,0xbe,0x70,0x66,0x02,0x3f,0xff,0xb7,0x0d,0xbf,
0x35,0x85,0x72,0x3f,0xf4,0x6f,0x2a,0xbf,0xde,0x02,0xfa,0x3d,
0xcb,0x3e,0x23,0xbf,0x3a,0xd8,0x41,0x3e,0xcd,0x3e,0x4c,0x3d,
0xe9,0x39,0x51,0xbd,0xeb,0x40,0xdb,0xbd,0x5e,0x2c,0x90,0xbe,
0x36,0xa5,0x6c,0x3e,0xe4,0x42,0x9b,0xbc,0x7c,0xed,0xff,0x3e,
0x5c,0x78,0x24,0x3e,0xc4,0x79,0xb4,0xbc,0x38,0x00,0x9a,0xbf,
0xb2,0xe4,0xae,0x3c,0xd8,0x81,0x4e,0x3e,0x5a,0x85,0x2f,0xbe,
0x15,0x08,0xac,0x3d,0x7d,0xe3,0x20,0xbe,0x3e,0x0f,0x59,0x3e,
0xdd,0x91,0xc1,0x3d,0xca,0xe4,0x86,0x3e,0xe8,0x4b,0x0e,0xbf,
0x10,0x45,0x5c,0x3e,0x17,0xf7,0x44,0x3e,0x76,0xcf,0xac,0x3d,
0x23,0x60,0x0f,0x3e,0xba,0x5e,0x05,0xbf,0xdf,0x96,0x45,0x3e,
0xee,0x9b,0x17,0xbd,0x8f,0x96,0xdd,0xbe,0x90,0xb1,0x07,0xbf,
0x5c,0x55,0x70,0xbe,0x81,0x2c,0x1b,0x3e,0x5c,0x31,0x36,0xbd,
0x9f,0xe0,0xdc,0x3e,0x8a,0xcb,0x95,0x3d,0xdc,0xd3,0x70,0xbf,
0x96,0x71,0xc8,0x3c,0x3c,0x69,0x1c,0xbe,0xb5,0xf1,0x8e,0xbc,
0x0c,0xdd,0x8b,0xbf,0x43,0xfd,0x1c,0x3e,0xcf,0xcf,0x07,0x3e,
0x70,0xf2,0xf9,0x3c,0x6c,0x42,0x58,0x3e,0xe0,0x7b,0xa2,0xbe,
0x64,0xdc,0x1d,0x3f,0x21,0xdd,0xe5,0xbe,0x4e,0x6c,0x19,0xbf,
0x6f,0xac,0x99,0x3d,0x07,0xc6,0x12,0xbe,0xfe,0x48,0xf2,0x3d,
0x70,0xbd,0xb7,0xbd,0x51,0x2d,0x52,0x3e,0xc1,0x54,0xa2,0xbf,
0xcf,0xb8,0x8c,0x3e,0x24,0xee,0x54,0xbe,0xd0,0x33,0xb3,0x3e,
0x0b,0x76,0x08,0xbf,0x34,0x92,0xe6,0xbd,0x74,0xfa,0x88,0x3d,
0x7c,0xb8,0x37,0xbe,0xcd,0xcf,0x74,0xbe,0x0f,0x0f,0x05,0x3d,
0x1e,0xf9,0xef,0x3d,0x66,0x2c,0x4f,0xbe,0xf1,0x5f,0x07,0x3f,
0x40,0xd1,0x48,0xbe,0xc8,0x50,0x92,0xbf,0x74,0x04,0xcd,0x3e,
0x25,0x2c,0x8b,0xbd,0xfe,0x5d,0xcb,0x3e,0x49,0xba,0xe3,0x3e,
0xf9,0xa9,0x34,0x3f,0x3a,0xde,0xd3,0x3e,0x80,0x22,0xee,0x3e,
0x46,0x5f,0x06,0x3f,0xd9,0xd4,0x32,0x3f,0x75,0xb7,0xc0,0x3e,
0x9b,0x05,0xe4,0xbd,0x8a,0xff,0x1c,0x3e,0xcf,0xd1,0xc1,0xbe,
0x93,0x77,0x3f,0x3f,0x25,0x06,0xfe,0x3d,0x3d,0x29,0xb1,0xbe,
0x42,0x8a,0x2a,0x3e,0x1b,0x24,0x5e,0xbd,0xeb,0x2e,0x5d,0x3d,
0x86,0xb1,0x7e,0xbe,0x72,0x9e,0x1a,0xbf,0x3b,0x31,0x21,0xbf,
0xdb,0xb4,0x81,0x3e,0x12,0x88,0x10,0x3e,0x9a,0x9d,0x7e,0x3e,
0xcc,0x97,0x95,0x3e,0x31,0x75,0x05,0xbf,0x9e,0x23,0x12,0x3e,
0xa4,0x32,0x50,0xbe,0xc7,0xd9,0x53,0xbd,0xf9,0xb8,0xdc,0x3c,
0xbb,0xe0,0x1d,0x3f,0xdd,0xf7,0x91,0xbe,0x97,0xba,0x6c,0xbe,
0x9d,0xea,0xcb,0xbd,0x9a,0x76,0x1a,0xbe,0x53,0x67,0xb8,0x3d,
0x2d,0x45,0x4a,0xbf,0xec,0xe1,0x8b,0x3d,0x8f,0x53,0xcc,0x3c,
0x74,0x87,0xb4,0x3e,0x20,0xc4,0x90,0xbf,0x07,0x2d,0x20,0xbe,
0x25,0x87,0x0e,0xbf,0x22,0xb8,0xc9,0x3d,0xe6,0xef,0xd5,0x3b,
0x0a,0x63,0xb9,0xbd,0x02,0x9d,0x84,0x3e,0x94,0xf3,0xf9,0xbc,
0x3e,0x36,0x95,0x3d,0x26,0x69,0xcd,0xbe,0x54,0x29,0xb0,0x3e,
0x58,0x9f,0x84,0x3e,0xee,0xb3,0x8d,0x3e,0xf6,0x55,0x0f,0xbf,
0xfb,0xd3,0x72,0x3f,0xd4,0xd4,0x1b,0xbd,0xfe,0x96,0x1e,0xbf,
0x0f,0x0a,0x01,0xbf,0x1d,0x20,0x51,0xbd,0x7e,0x0a,0x93,0x3c,
0x1a,0x0b,0x02,0xbf,0x65,0x7a,0x3b,0xbf,0x16,0x09,0xb9,0x3d,
0x2d,0x19,0xce,0x3e,0xcf,0x99,0x30,0xbf,0x8a,0xe6,0xf6,0xbe,
0x88,0xe8,0xac,0x3e,0x86,0xe6,0x60,0x3e,0x0f,0xb4,0x0b,0xbe,
0x0e,0xfd,0xff,0xff,0x04,0x00,0x00,0x00,0x3c,0x00,0x00,0x00,
0x11,0xd5,0x53,0x3d,0x73,0xbb,0x25,0x3e,0xcb,0x6c,0x01,0xbe,
0xc2,0xd0,0xbf,0x3e,0x54,0x30,0xe9,0xbd,0xf2,0x32,0xb9,0x3d,
0x9e,0xd4,0x94,0x3d,0x22,0x7d,0x42,0x3e,0x70,0x72,0xd0,0x3e,
0xdc,0x67,0x34,0x3e,0x10,0xe8,0x8f,0x3d,0xc8,0x24,0xb6,0xbc,
0xdc,0x09,0xad,0x3e,0x29,0xf3,0xe1,0xbb,0x21,0xd7,0xf4,0x3c,
0x56,0xfd,0xff,0xff,0x04,0x00,0x00,0x00,0x28,0x00,0x00,0x00,
0x3d,0xd3,0xae,0x3c,0x4c,0x52,0x91,0xbd,0x60,0x7d,0xe0,0x3e,
0xb6,0xee,0x21,0xbd,0xdf,0xbf,0xe8,0xbd,0x1b,0x22,0x16,0x3d,
0x00,0x00,0x00,0x00,0x48,0xb4,0xcb,0x3c,0x87,0x41,0x4a,0xbd,
0x3e,0xe8,0x84,0x3d,0x8a,0xfd,0xff,0xff,0x04,0x00,0x00,0x00,
0x04,0x00,0x00,0x00,0x5c,0xb2,0x8a,0xbe,0x9a,0xfd,0xff,0xff,
0x04,0x00,0x00,0x00,0x58,0x02,0x00,0x00,0xf8,0x81,0x46,0x3f,
0x98,0xd0,0xa8,0xbe,0x4a,0x44,0xdc,0x3e,0xf4,0x3e,0x3c,0xbf,
0xe5,0x9f,0xb9,0x3e,0xd3,0x35,0x17,0xbf,0x61,0x37,0x42,0xbe,
0xca,0x9c,0xf8,0xbe,0x16,0x90,0x17,0xbf,0xd2,0xc8,0x36,0xbf,
0x43,0x9d,0xe8,0x3e,0xea,0xe8,0x3d,0xbf,0x2c,0x6e,0x0e,0xbf,
0xb6,0x80,0x3a,0x3f,0x7d,0xfd,0x22,0xbf,0xe1,0xfe,0xd0,0xbe,
0x34,0xb2,0x6b,0xbe,0x4e,0x7e,0xb8,0x3d,0xd8,0x83,0x96,0x3d,
0x20,0x6f,0x23,0xbe,0x62,0x76,0xf2,0xbc,0x4e,0xc9,0x16,0xbe,
0xf4,0xf7,0xec,0xbe,0xf0,0x95,0xfd,0xbe,0x15,0x56,0x23,0x3c,
0xd7,0xd1,0x21,0xbe,0x60,0xe5,0xb5,0x3e,0x10,0xad,0xfe,0xbd,
0x0e,0xd6,0x78,0xbe,0x51,0x6a,0xbc,0xbd,0xc0,0x94,0x7a,0xbd,
0x04,0x71,0xf5,0x3e,0x6b,0x75,0x7c,0xbe,0xef,0x87,0x64,0x3f,
0x47,0xf7,0x76,0xbf,0x31,0xa3,0x34,0x3f,0xbb,0x92,0xd6,0x3d,
0x03,0x97,0x28,0x3f,0x76,0x8c,0x8f,0x3f,0xee,0x16,0x3e,0x3f,
0x74,0x8d,0x73,0xbd,0x70,0xa2,0x2b,0x3e,0x83,0x64,0x88,0x3f,
0x43,0x01,0x95,0xbd,0xe5,0x4c,0x44,0x3f,0x34,0xa2,0xa1,0xbe,
0x15,0x93,0x6a,0xbe,0x0e,0x0f,0x05,0x3e,0xac,0x14,0x85,0x3e,
0x99,0xf8,0x5f,0xbe,0xc1,0x17,0x81,0xbe,0x4b,0xe4,0x96,0xbe,
0xc8,0x2a,0x12,0xbd,0x6f,0x4d,0xfc,0xbe,0xe6,0x8c,0x8e,0x3e,
0x9b,0x51,0x87,0xbe,0xd9,0x91,0xbb,0xbc,0x40,0x89,0xc1,0xbe,
0xba,0xf0,0xff,0xbd,0xa3,0x0c,0xf0,0x3e,0x58,0xef,0xb0,0xbe,
0x01,0x86,0x80,0x3e,0x0d,0xaa,0x2b,0xbe,0xf4,0xd6,0x46,0xbe,
0x3e,0x62,0xdd,0x3e,0x6d,0xab,0x94,0x3e,0xb2,0x37,0xf8,0x3c,
0x72,0x8d,0x90,0xbe,0xf4,0x43,0x58,0x3e,0xea,0xa9,0xae,0x3c,
0x0d,0x1c,0x86,0xbe,0x58,0x00,0x9d,0xbe,0x95,0x7c,0xdf,0xbc,
0x0e,0x0e,0x59,0x3e,0xd1,0x6e,0x03,0xbd,0xcf,0x7d,0x77,0xbc,
0x4a,0xdf,0xa9,0xbe,0xee,0xc4,0xe6,0xbe,0x13,0x07,0xc0,0xbc,
0xc2,0x96,0xdc,0x3e,0x00,0x0d,0xfa,0x3b,0x13,0x93,0x28,0x3d,
0x1c,0x23,0x29,0xbe,0xbd,0x95,0xaa,0xbe,0x52,0x69,0x6d,0xbe,
0x00,0xcf,0x4e,0xbe,0x4a,0xa1,0x89,0xbe,0x3c,0x4f,0xa4,0xbe,
0x54,0x15,0xda,0x3d,0x18,0xf2,0x84,0xbe,0x00,0xf2,0xc5,0xbe,
0x20,0xac,0x68,0xbd,0x12,0x2f,0x5b,0x3e,0x60,0x73,0x49,0xbe,
0x3f,0xa6,0x87,0xbe,0xf1,0x0a,0x98,0xbe,0x62,0x11,0x81,0xbe,
0xef,0xce,0x9e,0x3e,0x20,0x23,0x3b,0xbc,0x80,0x34,0x35,0xbe,
0x0a,0xa1,0xbc,0xbe,0xc0,0x97,0xff,0xbc,0xac,0xec,0xb6,0xbd,
0xb5,0x3b,0xb4,0x3e,0x27,0x24,0xd2,0xbe,0xae,0x3a,0x42,0xbe,
0xf7,0x72,0x06,0x3d,0x2b,0x98,0xde,0xbe,0x1a,0x91,0x95,0xbe,
0x40,0x8d,0xa1,0x3e,0xe6,0xe3,0xde,0x3e,0x19,0x4b,0x0c,0xbe,
0xfa,0x8c,0x0c,0x3e,0x80,0xb4,0x36,0xbc,0xc4,0x42,0x3a,0x3e,
0x10,0x23,0x86,0xbe,0xcc,0xaf,0x1e,0x3d,0x67,0x88,0x7d,0xbe,
0x91,0x46,0x34,0xbe,0x54,0xf4,0x37,0xbe,0xba,0xf0,0x88,0x3c,
0xab,0x63,0xa8,0x3e,0x9f,0x3a,0xc3,0x3e,0x6e,0xe5,0xbe,0xbd,
0xf7,0xca,0x2c,0xbe,0xe2,0x93,0x53,0x3d,0xcd,0x49,0x43,0xbe,
0x98,0x96,0x84,0xbe,0x09,0xa9,0xec,0xbb,0x80,0x4e,0x70,0x3d,
0x4c,0xb1,0xa9,0xbe,0xa1,0x62,0x5f,0x3d,0xbc,0x93,0x8a,0xbe,
0x61,0xec,0xbe,0x3e,0x9f,0x6b,0xf7,0xbd,0x24,0x94,0x5c,0x3e,
0xe3,0x02,0x99,0xbe,0x8e,0x54,0x65,0x3e,0x17,0x67,0x17,0xbf,
0x91,0xb6,0x36,0x3f,0xa1,0x80,0x78,0xbd,0x2d,0x53,0x51,0x3d,
0xf2,0xf2,0x77,0xbe,0x5c,0x06,0x50,0x3e,0x0f,0x9b,0xb2,0xbf,
0x7e,0xfb,0xbb,0x3e,0x1f,0x0d,0xb4,0xbe,0x95,0x79,0x32,0xbf,
0xb9,0xf3,0x01,0x3d,0x98,0xbd,0xa8,0xbe,0x00,0x00,0x06,0x00,
0x08,0x00,0x04,0x00,0x06,0x00,0x00,0x00,0x04,0x00,0x00,0x00,
0x28,0x00,0x00,0x00,0xea,0x8e,0x81,0x3f,0x88,0x36,0x87,0x3e,
0x18,0xf3,0x83,0xbf,0x47,0x2f,0xa5,0x3e,0xad,0x79,0xbe,0x3e,
0x99,0x75,0xc4,0xbd,0x80,0x0d,0x9a,0x3d,0x6b,0x95,0xaf,0xbe,
0x7a,0x91,0x92,0x3e,0x37,0x18,0x55,0x3f,0x94,0xfa,0xff,0xff,
0x98,0xfa,0xff,0xff,0x0f,0x00,0x00,0x00,0x4d,0x4c,0x49,0x52,
0x20,0x43,0x6f,0x6e,0x76,0x65,0x72,0x74,0x65,0x64,0x2e,0x00,
0x01,0x00,0x00,0x00,0x14,0x00,0x00,0x00,0x00,0x00,0x0e,0x00,
0x18,0x00,0x14,0x00,0x10,0x00,0x0c,0x00,0x08,0x00,0x04,0x00,
0x0e,0x00,0x00,0x00,0x14,0x00,0x00,0x00,0x1c,0x00,0x00,0x00,
0x08,0x01,0x00,0x00,0x0c,0x01,0x00,0x00,0x10,0x01,0x00,0x00,
0x04,0x00,0x00,0x00,0x6d,0x61,0x69,0x6e,0x00,0x00,0x00,0x00,
0x04,0x00,0x00,0x00,0xb0,0x00,0x00,0x00,0x68,0x00,0x00,0x00,
0x34,0x00,0x00,0x00,0x10,0x00,0x00,0x00,0x00,0x00,0x0a,0x00,
0x10,0x00,0x0c,0x00,0x08,0x00,0x04,0x00,0x0a,0x00,0x00,0x00,
0x0c,0x00,0x00,0x00,0x10,0x00,0x00,0x00,0x01,0x00,0x00,0x00,
0x01,0x00,0x00,0x00,0x0a,0x00,0x00,0x00,0x01,0x00,0x00,0x00,
0x09,0x00,0x00,0x00,0x9a,0xff,0xff,0xff,0x10,0x00,0x00,0x00,
0x00,0x00,0x00,0x08,0x0c,0x00,0x00,0x00,0x10,0x00,0x00,0x00,
0x40,0xfb,0xff,0xff,0x01,0x00,0x00,0x00,0x09,0x00,0x00,0x00,
0x03,0x00,0x00,0x00,0x08,0x00,0x00,0x00,0x01,0x00,0x00,0x00,
0x03,0x00,0x00,0x00,0xca,0xff,0xff,0xff,0x10,0x00,0x00,0x00,
0x00,0x00,0x00,0x08,0x10,0x00,0x00,0x00,0x14,0x00,0x00,0x00,
0xba,0xff,0xff,0xff,0x00,0x00,0x00,0x01,0x01,0x00,0x00,0x00,
0x08,0x00,0x00,0x00,0x03,0x00,0x00,0x00,0x07,0x00,0x00,0x00,
0x02,0x00,0x00,0x00,0x04,0x00,0x00,0x00,0x00,0x00,0x0e,0x00,
0x16,0x00,0x00,0x00,0x10,0x00,0x0c,0x00,0x0b,0x00,0x04,0x00,
0x0e,0x00,0x00,0x00,0x18,0x00,0x00,0x00,0x00,0x00,0x00,0x08,
0x18,0x00,0x00,0x00,0x1c,0x00,0x00,0x00,0x00,0x00,0x06,0x00,
0x08,0x00,0x07,0x00,0x06,0x00,0x00,0x00,0x00,0x00,0x00,0x01,
0x01,0x00,0x00,0x00,0x07,0x00,0x00,0x00,0x03,0x00,0x00,0x00,
0x00,0x00,0x00,0x00,0x06,0x00,0x00,0x00,0x05,0x00,0x00,0x00,
0x01,0x00,0x00,0x00,0x0a,0x00,0x00,0x00,0x01,0x00,0x00,0x00,
0x00,0x00,0x00,0x00,0x0b,0x00,0x00,0x00,0xe8,0x03,0x00,0x00,
0x90,0x03,0x00,0x00,0x38,0x03,0x00,0x00,0xfc,0x02,0x00,0x00,
0xa4,0x02,0x00,0x00,0x50,0x02,0x00,0x00,0x04,0x02,0x00,0x00,
0x74,0x01,0x00,0x00,0xdc,0x00,0x00,0x00,0x60,0x00,0x00,0x00,
0x04,0x00,0x00,0x00,0x5a,0xfc,0xff,0xff,0x00,0x00,0x00,0x01,
0x14,0x00,0x00,0x00,0x1c,0x00,0x00,0x00,0x1c,0x00,0x00,0x00,
0x0b,0x00,0x00,0x00,0x34,0x00,0x00,0x00,0x02,0x00,0x00,0x00,
0xff,0xff,0xff,0xff,0x01,0x00,0x00,0x00,0x44,0xfc,0xff,0xff,
0x1b,0x00,0x00,0x00,0x53,0x74,0x61,0x74,0x65,0x66,0x75,0x6c,
0x50,0x61,0x72,0x74,0x69,0x74,0x69,0x6f,0x6e,0x65,0x64,0x43,
0x61,0x6c,0x6c,0x5f,0x31,0x3a,0x30,0x00,0x02,0x00,0x00,0x00,
0x01,0x00,0x00,0x00,0x01,0x00,0x00,0x00,0xb2,0xfc,0xff,0xff,
0x00,0x00,0x00,0x01,0x14,0x00,0x00,0x00,0x1c,0x00,0x00,0x00,
0x1c,0x00,0x00,0x00,0x0a,0x00,0x00,0x00,0x54,0x00,0x00,0x00,
0x02,0x00,0x00,0x00,0xff,0xff,0xff,0xff,0x01,0x00,0x00,0x00,
0x9c,0xfc,0xff,0xff,0x38,0x00,0x00,0x00,0x73,0x65,0x71,0x75,
0x65,0x6e,0x74,0x69,0x61,0x6c,0x5f,0x31,0x2f,0x64,0x65,0x6e,
0x73,0x65,0x5f,0x32,0x5f,0x31,0x2f,0x4d,0x61,0x74,0x4d,0x75,
0x6c,0x3b,0x73,0x65,0x71,0x75,0x65,0x6e,0x74,0x69,0x61,0x6c,
0x5f,0x31,0x2f,0x64,0x65,0x6e,0x73,0x65,0x5f,0x32,0x5f,0x31,
0x2f,0x41,0x64,0x64,0x00,0x00,0x00,0x00,0x02,0x00,0x00,0x00,
0x01,0x00,0x00,0x00,0x01,0x00,0x00,0x00,0x2a,0xfd,0xff,0xff,
0x00,0x00,0x00,0x01,0x14,0x00,0x00,0x00,0x1c,0x00,0x00,0x00,
0x1c,0x00,0x00,0x00,0x09,0x00,0x00,0x00,0x70,0x00,0x00,0x00,
0x02,0x00,0x00,0x00,0xff,0xff,0xff,0xff,0x0a,0x00,0x00,0x00,
0x14,0xfd,0xff,0xff,0x54,0x00,0x00,0x00,0x73,0x65,0x71,0x75,
0x65,0x6e,0x74,0x69,0x61,0x6c,0x5f,0x31,0x2f,0x64,0x65,0x6e,
0x73,0x65,0x5f,0x31,0x5f,0x32,0x2f,0x4d,0x61,0x74,0x4d,0x75,
0x6c,0x3b,0x73,0x65,0x71,0x75,0x65,0x6e,0x74,0x69,0x61,0x6c,
0x5f,0x31,0x2f,0x64,0x65,0x6e,0x73,0x65,0x5f,0x31,0x5f,0x32,
0x2f,0x52,0x65,0x6c,0x75,0x3b,0x73,0x65,0x71,0x75,0x65,0x6e,
0x74,0x69,0x61,0x6c,0x5f,0x31,0x2f,0x64,0x65,0x6e,0x73,0x65,
0x5f,0x31,0x5f,0x32,0x2f,0x41,0x64,0x64,0x00,0x00,0x00,0x00,
0x02,0x00,0x00,0x00,0x01,0x00,0x00,0x00,0x0a,0x00,0x00,0x00,
0xbe,0xfd,0xff,0xff,0x00,0x00,0x00,0x01,0x14,0x00,0x00,0x00,
0x1c,0x00,0x00,0x00,0x1c,0x00,0x00,0x00,0x08,0x00,0x00,0x00,
0x68,0x00,0x00,0x00,0x02,0x00,0x00,0x00,0xff,0xff,0xff,0xff,
0x0f,0x00,0x00,0x00,0xa8,0xfd,0xff,0xff,0x4e,0x00,0x00,0x00,
0x73,0x65,0x71,0x75,0x65,0x6e,0x74,0x69,0x61,0x6c,0x5f,0x31,
0x2f,0x64,0x65,0x6e,0x73,0x65,0x5f,0x31,0x2f,0x4d,0x61,0x74,
0x4d,0x75,0x6c,0x3b,0x73,0x65,0x71,0x75,0x65,0x6e,0x74,0x69,
0x61,0x6c,0x5f,0x31,0x2f,0x64,0x65,0x6e,0x73,0x65,0x5f,0x31,
0x2f,0x52,0x65,0x6c,0x75,0x3b,0x73,0x65,0x71,0x75,0x65,0x6e,
0x74,0x69,0x61,0x6c,0x5f,0x31,0x2f,0x64,0x65,0x6e,0x73,0x65,
0x5f,0x31,0x2f,0x41,0x64,0x64,0x00,0x00,0x02,0x00,0x00,0x00,
0x01,0x00,0x00,0x00,0x0f,0x00,0x00,0x00,0x9e,0xfe,0xff,0xff,
0x00,0x00,0x00,0x01,0x10,0x00,0x00,0x00,0x10,0x00,0x00,0x00,
0x07,0x00,0x00,0x00,0x28,0x00,0x00,0x00,0x24,0xfe,0xff,0xff,
0x1b,0x00,0x00,0x00,0x73,0x65,0x71,0x75,0x65,0x6e,0x74,0x69,
0x61,0x6c,0x5f,0x31,0x2f,0x64,0x65,0x6e,0x73,0x65,0x5f,0x31,
0x2f,0x4d,0x61,0x74,0x4d,0x75,0x6c,0x00,0x02,0x00,0x00,0x00,
0x0f,0x00,0x00,0x00,0x0e,0x00,0x00,0x00,0xe6,0xfe,0xff,0xff,
0x00,0x00,0x00,0x01,0x10,0x00,0x00,0x00,0x10,0x00,0x00,0x00,
0x06,0x00,0x00,0x00,0x34,0x00,0x00,0x00,0x6c,0xfe,0xff,0xff,
0x27,0x00,0x00,0x00,0x73,0x65,0x71,0x75,0x65,0x6e,0x74,0x69,
0x61,0x6c,0x5f,0x31,0x2f,0x64,0x65,0x6e,0x73,0x65,0x5f,0x31,
0x2f,0x41,0x64,0x64,0x2f,0x52,0x65,0x61,0x64,0x56,0x61,0x72,
0x69,0x61,0x62,0x6c,0x65,0x4f,0x70,0x00,0x01,0x00,0x00,0x00,
0x0f,0x00,0x00,0x00,0x36,0xff,0xff,0xff,0x00,0x00,0x00,0x01,
0x10,0x00,0x00,0x00,0x10,0x00,0x00,0x00,0x05,0x00,0x00,0x00,
0x38,0x00,0x00,0x00,0xbc,0xfe,0xff,0xff,0x29,0x00,0x00,0x00,
0x73,0x65,0x71,0x75,0x65,0x6e,0x74,0x69,0x61,0x6c,0x5f,0x31,
0x2f,0x64,0x65,0x6e,0x73,0x65,0x5f,0x31,0x5f,0x32,0x2f,0x41,
0x64,0x64,0x2f,0x52,0x65,0x61,0x64,0x56,0x61,0x72,0x69,0x61,
0x62,0x6c,0x65,0x4f,0x70,0x00,0x00,0x00,0x01,0x00,0x00,0x00,
0x0a,0x00,0x00,0x00,0x8a,0xff,0xff,0xff,0x00,0x00,0x00,0x01,
0x10,0x00,0x00,0x00,0x10,0x00,0x00,0x00,0x04,0x00,0x00,0x00,
0x1c,0x00,0x00,0x00,0x10,0xff,0xff,0xff,0x0f,0x00,0x00,0x00,
0x61,0x72,0x69,0x74,0x68,0x2e,0x63,0x6f,0x6e,0x73,0x74,0x61,
0x6e,0x74,0x32,0x00,0x01,0x00,0x00,0x00,0x01,0x00,0x00,0x00,
0xc2,0xff,0xff,0xff,0x00,0x00,0x00,0x01,0x10,0x00,0x00,0x00,
0x10,0x00,0x00,0x00,0x03,0x00,0x00,0x00,0x1c,0x00,0x00,0x00,
0x48,0xff,0xff,0xff,0x0f,0x00,0x00,0x00,0x61,0x72,0x69,0x74,
0x68,0x2e,0x63,0x6f,0x6e,0x73,0x74,0x61,0x6e,0x74,0x31,0x00,
0x02,0x00,0x00,0x00,0x0a,0x00,0x00,0x00,0x0f,0x00,0x00,0x00,
0x00,0x00,0x16,0x00,0x18,0x00,0x14,0x00,0x00,0x00,0x10,0x00,
0x0c,0x00,0x08,0x00,0x00,0x00,0x00,0x00,0x00,0x00,0x07,0x00,
0x16,0x00,0x00,0x00,0x00,0x00,0x00,0x01,0x10,0x00,0x00,0x00,
0x10,0x00,0x00,0x00,0x02,0x00,0x00,0x00,0x1c,0x00,0x00,0x00,
0x9c,0xff,0xff,0xff,0x0e,0x00,0x00,0x00,0x61,0x72,0x69,0x74,
0x68,0x2e,0x63,0x6f,0x6e,0x73,0x74,0x61,0x6e,0x74,0x00,0x00,
0x02,0x00,0x00,0x00,0x01,0x00,0x00,0x00,0x0a,0x00,0x00,0x00,
0x00,0x00,0x16,0x00,0x1c,0x00,0x18,0x00,0x00,0x00,0x14,0x00,
0x10,0x00,0x0c,0x00,0x00,0x00,0x00,0x00,0x08,0x00,0x07,0x00,
0x16,0x00,0x00,0x00,0x00,0x00,0x00,0x01,0x14,0x00,0x00,0x00,
0x20,0x00,0x00,0x00,0x20,0x00,0x00,0x00,0x01,0x00,0x00,0x00,
0x3c,0x00,0x00,0x00,0x02,0x00,0x00,0x00,0xff,0xff,0xff,0xff,
0x0e,0x00,0x00,0x00,0x04,0x00,0x04,0x00,0x04,0x00,0x00,0x00,
0x1e,0x00,0x00,0x00,0x73,0x65,0x72,0x76,0x69,0x6e,0x67,0x5f,
0x64,0x65,0x66,0x61,0x75,0x6c,0x74,0x5f,0x6b,0x65,0x72,0x61,
0x73,0x5f,0x74,0x65,0x6e,0x73,0x6f,0x72,0x3a,0x30,0x00,0x00,
0x02,0x00,0x00,0x00,0x01,0x00,0x00,0x00,0x0e,0x00,0x00,0x00,
0x02,0x00,0x00,0x00,0x20,0x00,0x00,0x00,0x04,0x00,0x00,0x00,
0xf4,0xff,0xff,0xff,0x0e,0x00,0x00,0x00,0x00,0x00,0x00,0x0e,
0x0c,0x00,0x0c,0x00,0x0b,0x00,0x00,0x00,0x00,0x00,0x04,0x00,
0x0c,0x00,0x00,0x00,0x09,0x00,0x00,0x00,0x00,0x00,0x00,0x09

};

#endif // AUSTRALIAN_CREDIT_MODEL_ESP32_H
